<unk>	0
<|user|>	0
<|assistant|>	0
<|end|>	0
▁t	-0
▁a	-1
in	-2
he	-3
on	-4
re	-5
ti	-6
er	-7
or	-8
▁s	-9
en	-10
▁the	-11
le	-12
is	-13
▁c	-14
al	-15
▁o	-16
ing	-17
at	-18
ed	-19
tion	-20
▁p	-21
es	-22
an	-23
ar	-24
▁m	-25
▁in	-26
▁f	-27
▁an	-28
▁d	-29
it	-30
▁of	-31
▁b	-32
ro	-33
▁w	-34
ic	-35
st	-36
▁to	-37
▁and	-38
▁n	-39
as	-40
▁e	-41
▁re	-42
ch	-43
ation	-44
om	-45
▁l	-46
el	-47
ut	-48
ent	-49
▁(	-50
et	-51
▁th	-52
us	-53
ay	-54
▁is	-55
ec	-56
▁T	-57
od	-58
ly	-59
▁pro	-60
im	-61
ra	-62
ce	-63
pl	-64
▁h	-65
▁A	-66
{\	-67
ith	-68
un	-69
ur	-70
▁g	-71
ve	-72
ol	-73
▁for	-74
▁as	-75
▁al	-76
ig	-77
ul	-78
▁be	-79
▁that	-80
▁com	-81
▁{\	-82
ow	-83
ge	-84
▁le	-85
▁I	-86
▁con	-87
▁on	-88
ms	-89
ble	-90
▁v	-91
▁us	-92
tic	-93
si	-94
put	-95
▁ex	-96
am	-97
ot	-98
yle	-99
ple	-100
▁The	-101
style	-102
▁st	-103
dis	-104
play	-105
arn	-106
display	-107
displaystyle	-108
res	-109
▁su	-110
se	-111
qu	-112
▁S	-113
il	-114
▁are	-115
▁or	-116
ct	-117
▁learn	-118
og	-119
ment	-120
id	-121
ers	-122
▁de	-123
ata	-124
ach	-125
▁mod	-126
for	-127
her	-128
▁with	-129
▁int	-130
▁by	-131
ine	-132
▁learning	-133
ces	-134
▁)	-135
ction	-136
ate	-137
fic	-138
▁In	-139
▁M	-140
ir	-141
ts	-142
▁ne	-143
▁data	-144
ver	-145
▁model	-146
}}	-147
um	-148
▁C	-149
ork	-150
▁can	-151
▁2	-152
gor	-153
▁1	-154
ity	-155
ere	-156
▁it	-157
per	-158
▁"	-159
ri	-160
etw	-161
gorith	-162
ex	-163
▁im	-164
age	-165
▁x	-166
ally	-167
iz	-168
ad	-169
▁P	-170
em	-171
▁sy	-172
▁wh	-173
ations	-174
form	-175
▁algorith	-176
▁ar	-177
▁r	-178
▁L	-179
▁D	-180
▁en	-181
ect	-182
tive	-183
ore	-184
▁R	-185
▁F	-186
▁ap	-187
ter	-188
ener	-189
ep	-190
rain	-191
if	-192
rom	-193
▁O	-194
ab	-195
▁un	-196
etwork	-197
ac	-198
▁k	-199
▁B	-200
ist	-201
▁G	-202
ion	-203
cess	-204
ence	-205
▁comput	-206
▁network	-207
▁from	-208
▁se	-209
so	-210
▁proble	-211
▁sp	-212
▁syst	-213
ated	-214
ural	-215
▁not	-216
led	-217
ext	-218
os	-219
ud	-220
and	-221
ial	-222
gu	-223
▁such	-224
du	-225
▁N	-226
▁20	-227
ain	-228
pro	-229
ag	-230
▁AI	-231
igh	-232
ten	-233
op	-234
▁gener	-235
ni	-236
ans	-237
▁used	-238
▁,	-239
ther	-240
▁E	-241
ure	-242
▁cl	-243
▁ha	-244
▁H	-245
ich	-246
able	-247
▁at	-248
▁cont	-249
vel	-250
▁mach	-251
▁inc	-252
ak	-253
ru	-254
▁pre	-255
now	-256
ample	-257
▁train	-258
▁have	-259
ds	-260
tim	-261
iv	-262
ech	-263
ome	-264
▁which	-265
ell	-266
▁ac	-267
angu	-268
▁rec	-269
).	-270
▁ad	-271
arch	-272
ari	-273
▁whe	-274
▁was	-275
oc	-276
▁par	-277
ant	-278
▁fun	-279
ision	-280
ous	-281
der	-282
pres	-283
▁W	-284
ased	-285
ems	-286
fere	-287
▁models	-288
▁process	-289
ical	-290
▁langu	-291
▁=	-292
eth	-293
ram	-294
feren	-295
ap	-296
▁tr	-297
sion	-298
ethod	-299
▁function	-300
▁Th	-301
▁all	-302
▁machine	-303
▁know	-304
▁algorithms	-305
ard	-306
▁example	-307
enti	-308
▁method	-309
th	-310
yp	-311
ies	-312
oun	-313
▁19	-314
▁\	-315
▁neural	-316
^{	-317
ks	-318
▁this	-319
ory	-320
ance	-321
▁out	-322
▁systems	-323
ative	-324
_{	-325
ost	-326
plic	-327
are	-328
),	-329
▁clas	-330
tical	-331
▁other	-332
ci	-333
▁networks	-334
ug	-335
▁dec	-336
▁use	-337
▁problem	-338
▁has	-339
▁ch	-340
▁also	-341
▁algorithm	-342
alu	-343
▁man	-344
tions	-345
▁input	-346
▁comple	-347
tern	-348
lud	-349
)}	-350
ign	-351
▁This	-352
▁des	-353
▁per	-354
ures	-355
ph	-356
▁trans	-357
▁dis	-358
▁.	-359
ire	-360
act	-361
aly	-362
ma	-363
▁{	-364
ort	-365
ruct	-366
ft	-367
▁mat	-368
▁some	-369
▁language	-370
▁po	-371
▁one	-372
ugh	-373
▁more	-374
▁training	-375
ber	-376
▁includ	-377
ments	-378
present	-379
olog	-380
▁U	-381
abil	-382
ding	-383
▁set	-384
ages	-385
ight	-386
▁op	-387
ulti	-388
ledge	-389
ogni	-390
▁lar	-391
▁sol	-392
▁complex	-393
ors	-394
▁ab	-395
▁ob	-396
▁represent	-397
▁lay	-398
▁comp	-399
ill	-400
▁For	-401
▁tim	-402
dic	-403
ken	-404
oul	-405
▁appro	-406
les	-407
▁computer	-408
ould	-409
▁dif	-410
ame	-411
▁methods	-412
ary	-413
pt	-414
ase	-415
ati	-416
▁qu	-417
▁its	-418
▁prog	-419
▁vari	-420
▁K	-421
eg	-422
▁so	-423
▁num	-424
ced	-425
est	-426
irst	-427
▁analy	-428
ack	-429
▁res	-430
out	-431
▁been	-432
mb	-433
all	-434
mon	-435
▁tas	-436
▁each	-437
▁output	-438
ie	-439
su	-440
▁time	-441
▁sh	-442
▁typ	-443
▁problems	-444
▁wor	-445
▁into	-446
▁rese	-447
tention	-448
▁fe	-449
text	-450
di	-451
ode	-452
▁we	-453
ates	-454
formation	-455
ray	-456
sis	-457
▁do	-458
▁sim	-459
▁may	-460
▁deep	-461
ficial	-462
velop	-463
ines	-464
▁hum	-465
arly	-466
istic	-467
rac	-468
ved	-469
▁aut	-470
▁def	-471
end	-472
▁but	-473
ognition	-474
▁develop	-475
▁min	-476
ational	-477
▁knowledge	-478
rib	-479
tificial	-480
▁inter	-481
▁form	-482
up	-483
▁J	-484
▁me	-485
▁202	-486
ution	-487
▁than	-488
▁spec	-489
▁were	-490
ellig	-491
ties	-492
▁their	-493
▁where	-494
ik	-495
▁he	-496
▁first	-497
ide	-498
▁many	-499
ization	-500
▁system	-501
▁token	-502
00	-503
NN	-504
erm	-505
▁large	-506
▁using	-507
▁ev	-508
▁det	-509
▁image	-510
▁multi	-511
▁fi	-512
▁rel	-513
▁array	-514
▁struct	-515
▁Al	-516
ised	-517
ast	-518
aus	-519
ust	-520
▁fin	-521
▁sub	-522
▁applic	-523
ace	-524
ied	-525
▁exper	-526
ual	-527
▁cal	-528
▁pat	-529
oder	-530
▁over	-531
ose	-532
▁valu	-533
▁ele	-534
▁tech	-535
▁they	-536
▁classi	-537
▁An	-538
▁text	-539
ize	-540
▁bec	-541
wo	-542
▁V	-543
▁program	-544
perv	-545
▁these	-546
▁recognition	-547
nt	-548
▁}	-549
ked	-550
▁acc	-551
ses	-552
▁requ	-553
▁predic	-554
▁then	-555
.,	-556
av	-557
ely	-558
▁201	-559
▁disc	-560
▁list	-561
▁differen	-562
▁transform	-563
▁3	-564
▁i	-565
▁ef	-566
▁ru	-567
elligence	-568
LM	-569
low	-570
▁ag	-571
▁ro	-572
▁any	-573
▁log	-574
▁information	-575
ular	-576
▁Com	-577
ating	-578
▁human	-579
▁produ	-580
uring	-581
atis	-582
ake	-583
▁if	-584
iven	-585
ting	-586
ology	-587
ific	-588
▁inst	-589
pervised	-590
▁complexity	-591
▁y	-592
▁St	-593
▁em	-594
port	-595
▁based	-596
ree	-597
tics	-598
ub	-599
ser	-600
ware	-601
▁ind	-602
▁optim	-603
▁search	-604
▁It	-605
▁bi	-606
▁tasks	-607
▁under	-608
▁decision	-609
▁+	-610
een	-611
ted	-612
ving	-613
▁two	-614
ability	-615
▁processing	-616
}}}	-617
▁sc	-618
ever	-619
▁state	-620
▁artificial	-621
ong	-622
▁lin	-623
etween	-624
▁perform	-625
▁most	-626
▁0	-627
▁pl	-628
▁new	-629
▁number	-630
pec	-631
ound	-632
based	-633
▁between	-634
▁go	-635
▁pattern	-636
the	-637
▁no	-638
".	-639
te	-640
▁reg	-641
▁j	-642
ile	-643
hema	-644
▁how	-645
▁fiel	-646
▁desc	-647
▁prob	-648
▁vision	-649
ess	-650
▁when	-651
ike	-652
▁LLM	-653
▁enc	-654
▁vect	-655
ension	-656
▁general	-657
▁analysis	-658
to	-659
fici	-660
mbol	-661
▁Pro	-662
ons	-663
▁real	-664
xim	-665
ually	-666
ically	-667
imension	-668
▁pos	-669
tional	-670
▁–	-671
ents	-672
▁cor	-673
▁defin	-674
▁called	-675
)=	-676
ark	-677
inear	-678
▁prov	-679
fication	-680
ss	-681
ier	-682
▁layer	-683
▁intelligence	-684
▁cre	-685
▁research	-686
ases	-687
▁spe	-688
rough	-689
ctions	-690
19	-691
ne	-692
ized	-693
▁allow	-694
ite	-695
▁De	-696
tain	-697
▁gra	-698
amet	-699
ject	-700
ward	-701
▁given	-702
ves	-703
▁id	-704
ming	-705
force	-706
▁only	-707
▁include	-708
▁mathema	-709
▁applications	-710
ld	-711
ful	-712
▁mem	-713
▁feat	-714
▁work	-715
ough	-716
PT	-717
ip	-718
lis	-719
▁same	-720
▁theory	-721
its	-722
ric	-723
ult	-724
▁es	-725
▁sequ	-726
ection	-727
▁possi	-728
ery	-729
fer	-730
▁known	-731
▁identi	-732
▁statis	-733
our	-734
pon	-735
ason	-736
ities	-737
inforce	-738
▁trained	-739
▁specific	-740
ise	-741
oth	-742
pre	-743
vol	-744
ower	-745
rodu	-746
▁oper	-747
▁const	-748
mat	-749
ause	-750
chit	-751
ference	-752
hes	-753
▁high	-754
▁node	-755
▁often	-756
chitect	-757
▁common	-758
▁attention	-759
enc	-760
iron	-761
niqu	-762
▁nat	-763
▁fact	-764
▁hand	-765
▁incre	-766
inforcement	-767
pe	-768
ail	-769
ern	-770
▁fol	-771
ential	-772
▁about	-773
▁require	-774
▁different	-775
ists	-776
rent	-777
ress	-778
viron	-779
▁mining	-780
▁through	-781
▁generative	-782
arc	-783
elf	-784
▁dist	-785
▁would	-786
▁follow	-787
▁architect	-788
ism	-789
pen	-790
▁ph	-791
▁neur	-792
▁there	-793
▁images	-794
)\	-795
oo	-796
ann	-797
▁lab	-798
▁posi	-799
▁well	-800
▁environ	-801
ics	-802
▁Go	-803
▁cap	-804
▁will	-805
ia	-806
pos	-807
sum	-808
▁Ne	-809
▁gro	-810
▁space	-811
▁layers	-812
▁reason	-813
▁techniqu	-814
▁representation	-815
▁(2	-816
▁up	-817
hers	-818
▁non	-819
▁partic	-820
hed	-821
int	-822
▁Con	-823
▁col	-824
▁Deep	-825
▁expl	-826
▁These	-827
▁integ	-828
▁structure	-829
▁programming	-830
▁ma	-831
ality	-832
NNs	-833
▁sm	-834
▁design	-835
ov	-836
▁eng	-837
▁soft	-838
arning	-839
▁autom	-840
▁field	-841
ficient	-842
▁transformer	-843
fy	-844
▁Ar	-845
▁pr	-846
ince	-847
▁adv	-848
▁imple	-849
",	-850
jec	-851
rol	-852
cept	-853
▁How	-854
▁med	-855
▁pol	-856
▁conn	-857
▁early	-858
▁possible	-859
sive	-860
vely	-861
▁rules	-862
▁linked	-863
▁introdu	-864
ens	-865
hen	-866
▁Ex	-867
▁Un	-868
king	-869
▁add	-870
▁ser	-871
▁consi	-872
▁value	-873
▁expert	-874
▁developed	-875
of	-876
▁tra	-877
▁redu	-878
▁impro	-879
▁implement	-880
▁languages	-881
ob	-882
ang	-883
▁Ch	-884
urrent	-885
▁being	-886
▁Comput	-887
▁natural	-888
▁computational	-889
ey	-890
ta	-891
▁|	-892
iew	-893
very	-894
▁beh	-895
▁equ	-896
▁both	-897
▁stud	-898
▁X	-899
als	-900
▁them	-901
▁linear	-902
▁However	-903
▁functions	-904
▁As	-905
▁Le	-906
▁(19	-907
archers	-908
▁paramet	-909
▁multiple	-910
▁ext	-911
▁pub	-912
▁size	-913
rit	-914
ered	-915
▁sci	-916
plied	-917
▁order	-918
▁vector	-919
▁classification	-920
til	-921
ven	-922
▁Re	-923
echan	-924
ected	-925
▁memory	-926
▁describ	-927
yn	-928
▁4	-929
aking	-930
stand	-931
▁while	-932
▁notation	-933
▁sequence	-934
fi	-935
ather	-936
other	-937
ption	-938
▁Data	-939
▁Mach	-940
▁like	-941
▁expres	-942
supervised	-943
▁9	-944
get	-945
atic	-946
math	-947
▁dom	-948
▁back	-949
▁machines	-950
▁statistical	-951
▁Y	-952
gan	-953
▁}}	-954
ogle	-955
ights	-956
▁behav	-957
▁could	-958
▁Google	-959
▁tokens	-960
▁elements	-961
▁reinforcement	-962
und	-963
▁av	-964
rame	-965
aches	-966
▁including	-967
▁typically	-968
▁structures	-969
▁probability	-970
▁researchers	-971
de	-972
▁Q	-973
rix	-974
exts	-975
fter	-976
▁rem	-977
ering	-978
ermin	-979
▁word	-980
▁polic	-981
▁speech	-982
▁control	-983
▁examples	-984
▁software	-985
▁z	-986
ene	-987
ply	-988
uch	-989
urn	-990
ited	-991
ount	-992
▁198	-993
▁lim	-994
▁conc	-995
▁make	-996
▁step	-997
▁small	-998
ditional	-999
▁contain	-1000
▁neurons	-1001
▁patterns	-1002
▁reasoning	-1003
▁environment	-1004
▁−	-1005
any	-1006
tiv	-1007
akes	-1008
▁lists	-1009
▁solve	-1010
▁Turing	-1011
▁because	-1012
dimension	-1013
ond	-1014
por	-1015
odes	-1016
▁bel	-1017
▁had	-1018
▁pri	-1019
▁way	-1020
▁need	-1021
ertain	-1022
▁obser	-1023
▁behavi	-1024
▁mechan	-1025
▁values	-1026
▁performance	-1027
▁_{	-1028
▁suc	-1029
andom	-1030
right	-1031
ymbol	-1032
▁show	-1033
▁sign	-1034
urther	-1035
▁logic	-1036
▁power	-1037
▁resul	-1038
▁engine	-1039
▁[	-1040
^{2	-1041
err	-1042
one	-1043
ynam	-1044
▁200	-1045
ables	-1046
▁provid	-1047
-0	-1048
▁⁡	-1049
fore	-1050
ious	-1051
work	-1052
▁att	-1053
▁ret	-1054
▁cons	-1055
▁cost	-1056
▁dire	-1057
▁uses	-1058
▁found	-1059
▁content	-1060
▁various	-1061
▁approach	-1062
▁features	-1063
dimensional	-1064
▁techniques	-1065
oy	-1066
erg	-1067
ind	-1068
iti	-1069
tit	-1070
▁IS	-1071
▁ra	-1072
▁199	-1073
▁str	-1074
ility	-1075
veral	-1076
▁meas	-1077
▁class	-1078
▁estim	-1079
▁extra	-1080
▁graph	-1081
▁techn	-1082
▁Machine	-1083
▁applied	-1084
▁several	-1085
▁mathematical	-1086
ue	-1087
▁am	-1088
▁mo	-1089
igin	-1090
igni	-1091
vers	-1092
▁loc	-1093
▁case	-1094
▁sing	-1095
▁task	-1096
▁index	-1097
▁label	-1098
ignific	-1099
ttention	-1100
▁introduced	-1101
air	-1102
ice	-1103
irc	-1104
ots	-1105
▁Se	-1106
ivid	-1107
▁inf	-1108
▁ris	-1109
▁ver	-1110
▁comb	-1111
▁origin	-1112
▁defined	-1113
ignificant	-1114
▁understand	-1115
ib	-1116
ry	-1117
xt	-1118
par	-1119
▁If	-1120
aset	-1121
ency	-1122
▁GPT	-1123
▁Int	-1124
oding	-1125
▁hard	-1126
▁long	-1127
▁prev	-1128
ataset	-1129
▁simil	-1130
▁theore	-1131
▁distrib	-1132
..	-1133
pts	-1134
▁En	-1135
▁et	-1136
eman	-1137
sing	-1138
soci	-1139
▁key	-1140
▁context	-1141
▁approxim	-1142
▁approaches	-1143
▁particular	-1144
78	-1145
AI	-1146
ety	-1147
ian	-1148
ange	-1149
onom	-1150
quad	-1151
▁err	-1152
extsf	-1153
posed	-1154
textsf	-1155
▁rather	-1156
▁encoder	-1157
▁significant	-1158
0,	-1159
BN	-1160
ale	-1161
big	-1162
mpt	-1163
red	-1164
ling	-1165
ocus	-1166
▁One	-1167
▁emb	-1168
▁rob	-1169
ently	-1170
▁LLMs	-1171
▁sent	-1172
▁type	-1173
▁what	-1174
edding	-1175
▁agent	-1176
▁domain	-1177
com	-1178
eng	-1179
rect	-1180
sour	-1181
▁tre	-1182
ances	-1183
▁They	-1184
ynamic	-1185
▁There	-1186
▁formal	-1187
▁random	-1188
▁dataset	-1189
▁instance	-1190
▁efficient	-1191
-1	-1192
eo	-1193
▁6	-1194
lay	-1195
ook	-1196
ord	-1197
▁co	-1198
olds	-1199
▁ISBN	-1200
▁rule	-1201
▁tool	-1202
lation	-1203
lished	-1204
▁action	-1205
▁proper	-1206
▁without	-1207
LP	-1208
ys	-1209
opy	-1210
pag	-1211
▁Ap	-1212
▁sa	-1213
lect	-1214
ploy	-1215
sequ	-1216
▁act	-1217
▁eff	-1218
▁lat	-1219
jects	-1220
▁Gener	-1221
▁after	-1222
▁disco	-1223
▁focus	-1224
▁frame	-1225
▁nodes	-1226
▁words	-1227
▁access	-1228
▁science	-1229
▁success	-1230
▁computing	-1231
▁parameters	-1232
▁supervised	-1233
▁development	-1234
▁architecture	-1235
cl	-1236
}\	-1237
▁→	-1238
mar	-1239
old	-1240
ator	-1241
eople	-1242
ition	-1243
▁Some	-1244
▁argu	-1245
▁even	-1246
▁goal	-1247
▁avail	-1248
▁minim	-1249
▁symbol	-1250
▁following	-1251
-2	-1252
cc	-1253
▁θ	-1254
_{\	-1255
orm	-1256
▁di	-1257
▁sit	-1258
ading	-1259
theta	-1260
utions	-1261
▁stand	-1262
▁diffic	-1263
▁inputs	-1264
▁address	-1265
▁learned	-1266
▁related	-1267
▁la	-1268
ards	-1269
valu	-1270
▁(20	-1271
▁big	-1272
▁sup	-1273
▁bias	-1274
▁main	-1275
▁pers	-1276
▁user	-1277
▁those	-1278
▁object	-1279
▁people	-1280
▁usually	-1281
▁Algorith	-1282
▁generation	-1283
PU	-1284
sc	-1285
den	-1286
cing	-1287
ings	-1288
▁978	-1289
▁bas	-1290
▁pot	-1291
times	-1292
▁circ	-1293
▁does	-1294
illion	-1295
▁means	-1296
▁since	-1297
▁types	-1298
ression	-1299
▁matrix	-1300
▁concern	-1301
▁weights	-1302
▁detection	-1303
▁∞	-1304
ass	-1305
fty	-1306
log	-1307
ense	-1308
imin	-1309
ored	-1310
rams	-1311
infty	-1312
▁issu	-1313
▁prac	-1314
lection	-1315
▁policy	-1316
▁classes	-1317
sp	-1318
▁'	-1319
art	-1320
ega	-1321
mer	-1322
uro	-1323
▁Im	-1324
ness	-1325
izing	-1326
▁larg	-1327
▁part	-1328
▁test	-1329
▁invol	-1330
▁analyz	-1331
ferences	-1332
ological	-1333
▁certain	-1334
▁element	-1335
▁Learning	-1336
▁generate	-1337
▁available	-1338
1}	-1339
ars	-1340
lic	-1341
chie	-1342
ired	-1343
▁run	-1344
bolds	-1345
ially	-1346
train	-1347
▁2023	-1348
▁Many	-1349
▁char	-1350
▁find	-1351
▁poin	-1352
▁vide	-1353
▁achie	-1354
▁arrays	-1355
▁direct	-1356
▁import	-1357
▁improve	-1358
▁similar	-1359
▁probabil	-1360
boldsymbol	-1361
▁difficult	-1362
ogn	-1363
ron	-1364
ute	-1365
▁NP	-1366
bers	-1367
head	-1368
mega	-1369
▁sec	-1370
▁top	-1371
▁much	-1372
▁pres	-1373
▁term	-1374
▁operations	-1375
▁regression	-1376
▁application	-1377
-3	-1378
10	-1379
5,	-1380
ared	-1381
ross	-1382
▁Res	-1383
▁When	-1384
▁feed	-1385
▁self	-1386
▁activ	-1387
▁assum	-1388
▁integr	-1389
▁within	-1390
▁ability	-1391
▁medical	-1392
textstyle	-1393
▁Computer	-1394
▁behavior	-1395
▁identify	-1396
▁interpre	-1397
▁solution	-1398
sw	-1399
inu	-1400
ish	-1401
}}\	-1402
▁dep	-1403
▁sur	-1404
ences	-1405
▁next	-1406
▁situ	-1407
▁exist	-1408
▁indic	-1409
▁world	-1410
▁associ	-1411
▁combin	-1412
▁single	-1413
▁dynamic	-1414
▁vectors	-1415
▁distribution	-1416
ade	-1417
cul	-1418
nal	-1419
▁Tr	-1420
▁bu	-1421
▁ed	-1422
▁Rec	-1423
▁cho	-1424
▁exp	-1425
▁ter	-1426
▁answ	-1427
▁mean	-1428
▁open	-1429
▁ques	-1430
▁risk	-1431
▁take	-1432
ategor	-1433
dition	-1434
▁effec	-1435
▁though	-1436
▁individ	-1437
▁optimal	-1438
▁results	-1439
▁embedding	-1440
▁inference	-1441
▁optimization	-1442
▁unsupervised	-1443
▁Ω	-1444
not	-1445
▁bl	-1446
frac	-1447
racy	-1448
time	-1449
▁196	-1450
▁ass	-1451
▁vis	-1452
arget	-1453
▁cent	-1454
▁conf	-1455
▁fast	-1456
▁less	-1457
▁rest	-1458
propag	-1459
▁error	-1460
▁level	-1461
▁maxim	-1462
▁seman	-1463
▁study	-1464
▁terms	-1465
▁allows	-1466
▁charact	-1467
▁correct	-1468
▁feature	-1469
▁constant	-1470
▁proposed	-1471
▁important	-1472
▁processes	-1473
ws	-1474
ays	-1475
cal	-1476
hip	-1477
ood	-1478
ayes	-1479
ires	-1480
▁197	-1481
▁indu	-1482
plicit	-1483
though	-1484
▁Other	-1485
▁before	-1486
▁calcul	-1487
▁conver	-1488
▁report	-1489
▁simple	-1490
▁actions	-1491
▁decoder	-1492
▁measure	-1493
▁predict	-1494
▁consider	-1495
▁framework	-1496
▁mechanism	-1497
▁published	-1498
▁translation	-1499
▁understanding	-1500
(1	-1501
ST	-1502
lu	-1503
▁/	-1504
och	-1505
ove	-1506
▁We	-1507
▁Wh	-1508
^{2}	-1509
ital	-1510
like	-1511
▁eas	-1512
▁low	-1513
Omega	-1514
uracy	-1515
▁Mark	-1516
▁rele	-1517
▁view	-1518
▁Trans	-1519
▁attem	-1520
▁exten	-1521
▁compon	-1522
▁consid	-1523
▁humans	-1524
pecially	-1525
▁categor	-1526
▁classif	-1527
▁accuracy	-1528
▁computation	-1529
4,	-1530
anc	-1531
rie	-1532
sed	-1533
▁Ad	-1534
▁pa	-1535
ices	-1536
inci	-1537
▁due	-1538
▁map	-1539
▁wid	-1540
ither	-1541
sions	-1542
▁must	-1543
▁evalu	-1544
▁during	-1545
▁recogn	-1546
▁respon	-1547
▁target	-1548
volution	-1549
▁continu	-1550
▁produce	-1551
▁special	-1552
Attention	-1553
▁modeling	-1554
▁previous	-1555
▁dimension	-1556
▁technology	-1557
▁architectures	-1558
6,	-1559
GPT	-1560
ded	-1561
nom	-1562
off	-1563
tle	-1564
▁NLP	-1565
▁dev	-1566
▁mis	-1567
▁see	-1568
▁soc	-1569
▁tru	-1570
▁who	-1571
dient	-1572
usion	-1573
▁poly	-1574
▁writ	-1575
amples	-1576
ularly	-1577
▁numer	-1578
▁second	-1579
▁weight	-1580
▁objects	-1581
▁original	-1582
▁programs	-1583
▁relations	-1584
▁especially	-1585
▁individual	-1586
uc	-1587
▁5	-1588
arl	-1589
val	-1590
▁gu	-1591
anti	-1592
lish	-1593
▁pop	-1594
▁ref	-1595
▁sum	-1596
asing	-1597
layer	-1598
▁base	-1599
▁buil	-1600
▁diag	-1601
▁phys	-1602
▁datab	-1603
▁group	-1604
▁refer	-1605
▁return	-1606
▁another	-1607
▁further	-1608
▁determin	-1609
▁hardware	-1610
▁positive	-1611
▁variables	-1612
\!	-1613
acy	-1614
con	-1615
ick	-1616
jor	-1617
ren	-1618
str	-1619
▁Cl	-1620
▁To	-1621
mong	-1622
pose	-1623
raph	-1624
▁mas	-1625
idden	-1626
▁ANNs	-1627
▁best	-1628
▁mark	-1629
nomial	-1630
ording	-1631
▁belie	-1632
▁might	-1633
tically	-1634
▁Neural	-1635
▁fields	-1636
▁current	-1637
▁requires	-1638
▁standard	-1639
▁decisions	-1640
propagation	-1641
gg	-1642
lp	-1643
ou	-1644
},	-1645
({\	-1646
lab	-1647
ull	-1648
▁By	-1649
ning	-1650
view	-1651
▁etc	-1652
▁hig	-1653
▁nam	-1654
▁Open	-1655
▁code	-1656
▁head	-1657
istics	-1658
tively	-1659
▁every	-1660
▁prior	-1661
▁query	-1662
▁became	-1663
▁others	-1664
▁person	-1665
nowledge	-1666
▁outputs	-1667
▁Algorithms	-1668
pi	-1669
ty	-1670
fit	-1671
oss	-1672
epar	-1673
ingu	-1674
requ	-1675
such	-1676
term	-1677
▁Pat	-1678
▁Sim	-1679
▁imp	-1680
▁led	-1681
anies	-1682
erest	-1683
▁copy	-1684
▁help	-1685
▁rate	-1686
▁tree	-1687
▁very	-1688
▁three	-1689
▁units	-1690
forward	-1691
▁resour	-1692
▁should	-1693
▁autonom	-1694
▁gradient	-1695
▁automatic	-1696
▁solutions	-1697
▁Artificial	-1698
."	-1699
sy	-1700
wn	-1701
ily	-1702
ive	-1703
\!\!	-1704
aces	-1705
ants	-1706
back	-1707
ived	-1708
rast	-1709
tice	-1710
▁dig	-1711
▁end	-1712
▁hyp	-1713
level	-1714
rimin	-1715
uture	-1716
▁Bayes	-1717
▁brain	-1718
▁video	-1719
cessing	-1720
ulation	-1721
▁Markov	-1722
▁amount	-1723
▁prompt	-1724
learning	-1725
▁support	-1726
▁designed	-1727
▁polynomial	-1728
▁representations	-1729
1,	-1730
ero	-1731
own	-1732
pha	-1733
tun	-1734
less	-1735
mann	-1736
▁195	-1737
▁bet	-1738
▁fil	-1739
▁too	-1740
▁via	-1741
ecess	-1742
round	-1743
▁Rese	-1744
▁able	-1745
action	-1746
istory	-1747
respon	-1748
ternal	-1749
▁Image	-1750
▁Multi	-1751
▁bound	-1752
▁separ	-1753
▁Intern	-1754
▁visual	-1755
ognitive	-1756
▁Another	-1757
▁whether	-1758
▁commonly	-1759
▁encoding	-1760
▁connected	-1761
▁described	-1762
▁interpret	-1763
▁potential	-1764
▁Generative	-1765
▁probabilistic	-1766
rm	-1767
▁]	-1768
STM	-1769
fin	-1770
man	-1771
pri	-1772
eled	-1773
othe	-1774
astic	-1775
ately	-1776
epend	-1777
▁prec	-1778
▁among	-1779
▁limit	-1780
▁paper	-1781
▁tools	-1782
▁better	-1783
▁create	-1784
▁hidden	-1785
▁itself	-1786
▁princi	-1787
▁signal	-1788
▁useful	-1789
▁product	-1790
▁provide	-1791
▁Knowledge	-1792
▁companies	-1793
▁correspon	-1794
▁relationship	-1795
-4	-1796
ER	-1797
po	-1798
^{\	-1799
ral	-1800
uth	-1801
}^{	-1802
▁Sy	-1803
▁US	-1804
ably	-1805
alle	-1806
ract	-1807
vant	-1808
▁Eng	-1809
▁che	-1810
▁ent	-1811
▁ide	-1812
▁(199	-1813
▁auth	-1814
▁comm	-1815
▁last	-1816
ermine	-1817
▁978-0	-1818
▁cases	-1819
▁diagn	-1820
▁elect	-1821
▁local	-1822
▁major	-1823
▁organ	-1824
▁descri	-1825
▁series	-1826
entially	-1827
▁numbers	-1828
▁popular	-1829
▁computers	-1830
▁generally	-1831
▁instances	-1832
▁sometimes	-1833
▁mathematics	-1834
")	-1835
.}	-1836
2,	-1837
▁:	-1838
▁π	-1839
)=\	-1840
000	-1841
PUs	-1842
ead	-1843
eld	-1844
row	-1845
wor	-1846
ergy	-1847
soft	-1848
▁eth	-1849
▁occ	-1850
ching	-1851
gment	-1852
ience	-1853
igned	-1854
inary	-1855
wards	-1856
▁Tech	-1857
▁appe	-1858
▁caus	-1859
▁down	-1860
▁made	-1861
▁prim	-1862
▁true	-1863
iction	-1864
monstr	-1865
▁Given	-1866
▁Since	-1867
▁depen	-1868
▁point	-1869
▁short	-1870
▁users	-1871
▁become	-1872
▁finite	-1873
▁stored	-1874
fficient	-1875
▁Pattern	-1876
▁integer	-1877
attention	-1878
▁demonstr	-1879
▁required	-1880
▁autonomous	-1881
▁biological	-1882
▁considered	-1883
▁increasing	-1884
▁prediction	-1885
▁properties	-1886
▁backpropagation	-1887
ff	-1888
me	-1889
}=	-1890
eta	-1891
ner	-1892
}}=	-1893
line	-1894
ature	-1895
ified	-1896
ittle	-1897
▁adap	-1898
▁game	-1899
▁synt	-1900
▁2023,	-1901
▁basic	-1902
▁frequ	-1903
▁incor	-1904
▁lower	-1905
▁conven	-1906
▁depend	-1907
▁either	-1908
▁factor	-1909
▁future	-1910
▁indust	-1911
▁observ	-1912
▁public	-1913
▁reward	-1914
ochastic	-1915
▁finding	-1916
▁hypothe	-1917
▁includes	-1918
plications	-1919
▁activation	-1920
▁definition	-1921
PA	-1922
ix	-1923
▁u	-1924
Net	-1925
ets	-1926
max	-1927
ran	-1928
▁(1	-1929
▁On	-1930
ible	-1931
ators	-1932
ength	-1933
iness	-1934
urope	-1935
▁More	-1936
▁aver	-1937
▁enti	-1938
▁iter	-1939
▁loss	-1940
▁sens	-1941
▁clust	-1942
▁makes	-1943
▁super	-1944
▁trees	-1945
ierarch	-1946
ruction	-1947
▁United	-1948
▁employ	-1949
▁higher	-1950
▁making	-1951
▁proced	-1952
▁solved	-1953
ficiency	-1954
▁diagnos	-1955
▁however	-1956
▁concerns	-1957
▁explicit	-1958
▁interest	-1959
▁cognitive	-1960
▁discovery	-1961
▁engineering	-1962
▁approximation	-1963
ll	-1964
pr	-1965
▁7	-1966
▁←	-1967
))}	-1968
arm	-1969
hic	-1970
omm	-1971
▁Ph	-1972
▁ve	-1973
ears	-1974
icro	-1975
plex	-1976
tial	-1977
▁Dec	-1978
▁bre	-1979
▁fac	-1980
▁saf	-1981
anced	-1982
erial	-1983
gener	-1984
▁fine	-1985
▁grow	-1986
▁priv	-1987
▁thus	-1988
▁cross	-1989
▁influ	-1990
▁inser	-1991
▁later	-1992
▁vehic	-1993
anguage	-1994
paramet	-1995
▁Europe	-1996
▁OpenAI	-1997
▁answer	-1998
▁cannot	-1999
▁detect	-2000
▁points	-2001
▁Further	-2002
▁created	-2003
▁percept	-2004
▁restric	-2005
abilities	-2006
▁contains	-2007
▁contrast	-2008
▁observed	-2009
▁produced	-2010
▁character	-2011
▁determine	-2012
▁discrimin	-2013
▁technique	-2014
▁classifier	-2015
▁transformers	-2016
▁implementation	-2017
NP	-2018
bb	-2019
co	-2020
wh	-2021
▁&	-2022
ify	-2023
inc	-2024
rid	-2025
▁Jo	-2026
▁Pa	-2027
egin	-2028
gram	-2029
ives	-2030
izes	-2031
ocab	-2032
ries	-2033
till	-2034
uted	-2035
▁Mat	-2036
▁adj	-2037
▁cam	-2038
▁emo	-2039
▁pur	-2040
arily	-2041
ented	-2042
plete	-2043
scale	-2044
ulate	-2045
ultim	-2046
verse	-2047
anning	-2048
▁chang	-2049
▁conce	-2050
▁simpl	-2051
ections	-2052
ologies	-2053
▁labels	-2054
▁refers	-2055
▁states	-2056
▁datasets	-2057
▁directly	-2058
▁hierarch	-2059
▁provided	-2060
▁sentence	-2061
▁automated	-2062
▁resources	-2063
▁successful	-2064
▁particularly	-2065
io	-2066
tz	-2067
▁8	-2068
ash	-2069
dec	-2070
med	-2071
ocu	-2072
oid	-2073
▁Sh	-2074
_{1}	-2075
cipl	-2076
dots	-2077
ests	-2078
left	-2079
▁lik	-2080
antum	-2081
forms	-2082
ories	-2083
token	-2084
▁(202	-2085
▁Chat	-2086
▁LSTM	-2087
▁acqu	-2088
▁clos	-2089
▁fair	-2090
▁heur	-2091
▁insp	-2092
▁lead	-2093
▁sets	-2094
aining	-2095
▁While	-2096
▁chall	-2097
▁gover	-2098
▁initi	-2099
▁still	-2100
▁works	-2101
oration	-2102
plexity	-2103
▁Vision	-2104
▁assign	-2105
▁define	-2106
▁necess	-2107
▁neuron	-2108
▁result	-2109
elligent	-2110
ependent	-2111
▁million	-2112
▁Bayesian	-2113
▁Research	-2114
▁addition	-2115
▁involves	-2116
▁question	-2117
volutional	-2118
▁according	-2119
▁numerical	-2120
▁recurrent	-2121
▁situation	-2122
▁experience	-2123
▁statistics	-2124
▁implemented	-2125
▁Intelligence	-2126
▁identification	-2127
PE	-2128
hn	-2129
▁-	-2130
▁φ	-2131
eli	-2132
lex	-2133
phi	-2134
pir	-2135
sim	-2136
}}(	-2137
▁("	-2138
▁At	-2139
alth	-2140
ench	-2141
fied	-2142
know	-2143
odel	-2144
orph	-2145
ping	-2146
spec	-2147
ways	-2148
▁Min	-2149
▁bus	-2150
▁his	-2151
field	-2152
known	-2153
ounds	-2154
▁1990	-2155
▁play	-2156
▁rece	-2157
▁turn	-2158
gether	-2159
▁camer	-2160
▁links	-2161
▁vocab	-2162
olution	-2163
trained	-2164
▁commun	-2165
▁larger	-2166
▁market	-2167
▁obtain	-2168
▁English	-2169
▁attempt	-2170
▁concept	-2171
▁consist	-2172
▁indices	-2173
▁leading	-2174
▁quality	-2175
▁classify	-2176
▁computed	-2177
▁together	-2178
▁constrain	-2179
▁copyright	-2180
▁collection	-2181
▁extraction	-2182
▁predictions	-2183
▁traditional	-2184
▁environments	-2185
9,	-2186
AN	-2187
sk	-2188
▁~	-2189
▁≤	-2190
leq	-2191
mit	-2192
▁He	-2193
oltz	-2194
otic	-2195
stit	-2196
sych	-2197
▁Per	-2198
▁RNN	-2199
▁gre	-2200
▁inv	-2201
▁leg	-2202
▁mon	-2203
▁neg	-2204
▁tem	-2205
▁uni	-2206
arial	-2207
ended	-2208
ental	-2209
▁1980	-2210
▁norm	-2211
▁repl	-2212
▁sort	-2213
▁star	-2214
linear	-2215
sition	-2216
▁accur	-2217
▁facts	-2218
▁issue	-2219
▁least	-2220
▁manip	-2221
▁range	-2222
▁takes	-2223
▁until	-2224
ception	-2225
▁advant	-2226
▁agents	-2227
▁always	-2228
▁enable	-2229
▁govern	-2230
▁handle	-2231
▁modern	-2232
▁quanti	-2233
▁reduce	-2234
▁experts	-2235
▁meaning	-2236
▁segment	-2237
ictionary	-2238
▁concepts	-2239
▁increase	-2240
▁provides	-2241
▁reported	-2242
▁generated	-2243
▁parameter	-2244
▁additional	-2245
▁associated	-2246
▁efficiency	-2247
▁stochastic	-2248
6.	-2249
8,	-2250
ID	-2251
\\	-2252
au	-2253
▁≥	-2254
geq	-2255
ock	-2256
rop	-2257
▁10	-2258
▁Ge	-2259
▁RL	-2260
▁Ro	-2261
▁bo	-2262
▁wr	-2263
aken	-2264
ival	-2265
osen	-2266
writ	-2267
▁Dif	-2268
▁See	-2269
▁Typ	-2270
▁bro	-2271
▁cri	-2272
▁law	-2273
▁web	-2274
allel	-2275
aries	-2276
aring	-2277
plies	-2278
value	-2279
world	-2280
▁Each	-2281
▁Hard	-2282
▁Syst	-2283
ograph	-2284
ournal	-2285
▁Alpha	-2286
▁Simil	-2287
▁again	-2288
▁artic	-2289
▁exact	-2290
▁occur	-2291
aligned	-2292
atively	-2293
▁around	-2294
▁change	-2295
▁consum	-2296
▁faster	-2297
▁impact	-2298
▁issues	-2299
▁recomm	-2300
▁sample	-2301
▁select	-2302
▁ChatGPT	-2303
▁capable	-2304
▁extract	-2305
▁privacy	-2306
▁solving	-2307
▁variety	-2308
▁written	-2309
▁continuous	-2310
▁connections	-2311
▁description	-2312
▁represented	-2313
▁deterministic	-2314
▁relationships	-2315
-5	-2316
0}	-2317
IT	-2318
by	-2319
ym	-2320
ERT	-2321
The	-2322
^{3	-2323
^{4	-2324
ibr	-2325
ilo	-2326
mid	-2327
mis	-2328
xed	-2329
▁(}	-2330
▁1.	-2331
▁Bl	-2332
aced	-2333
ceed	-2334
ging	-2335
isms	-2336
pect	-2337
ples	-2338
read	-2339
ream	-2340
▁New	-2341
▁Sch	-2342
▁den	-2343
▁dri	-2344
▁own	-2345
ivers	-2346
oring	-2347
sists	-2348
▁Thus	-2349
▁flow	-2350
▁just	-2351
▁path	-2352
▁remo	-2353
▁serv	-2354
▁sugg	-2355
▁tran	-2356
▁began	-2357
▁forms	-2358
▁named	-2359
▁noise	-2360
▁satis	-2361
▁speed	-2362
▁steps	-2363
▁years	-2364
decoder	-2365
▁adjust	-2366
▁energy	-2367
▁health	-2368
▁retrie	-2369
▁simply	-2370
▁social	-2371
ructures	-2372
▁consequ	-2373
▁domains	-2374
▁theorem	-2375
▁thought	-2376
▁vocabul	-2377
▁achieved	-2378
▁appropri	-2379
▁business	-2380
▁compared	-2381
▁consists	-2382
▁practice	-2383
▁Attention	-2384
▁component	-2385
▁estimated	-2386
▁expressed	-2387
▁semantics	-2388
▁difference	-2389
▁Computational	-2390
12	-2391
we	-2392
bit	-2393
ges	-2394
lat	-2395
lob	-2396
▁Fe	-2397
▁Kn	-2398
▁hy	-2399
Node	-2400
alid	-2401
ames	-2402
emic	-2403
iate	-2404
lear	-2405
▁Rep	-2406
▁did	-2407
▁far	-2408
▁fit	-2409
▁fra	-2410
▁now	-2411
aging	-2412
atory	-2413
begin	-2414
gence	-2415
iloso	-2416
▁2017	-2417
▁area	-2418
▁docu	-2419
▁earl	-2420
▁full	-2421
▁post	-2422
▁sour	-2423
▁ways	-2424
enetic	-2425
idence	-2426
▁apply	-2427
▁emerg	-2428
▁sense	-2429
actions	-2430
fitting	-2431
ilities	-2432
pirical	-2433
ultimod	-2434
▁States	-2435
▁deploy	-2436
▁entire	-2437
▁having	-2438
▁regard	-2439
training	-2440
▁depends	-2441
▁experim	-2442
▁maximum	-2443
▁version	-2444
▁Examples	-2445
▁database	-2446
▁describe	-2447
▁internal	-2448
▁planning	-2449
▁products	-2450
▁semantic	-2451
▁practical	-2452
▁reduction	-2453
▁Conference	-2454
▁positional	-2455
▁theoretical	-2456
(\	-2457
-7	-2458
1.	-2459
3.	-2460
CE	-2461
IM	-2462
RL	-2463
ax	-2464
sh	-2465
▁Z	-2466
.).	-2467
edu	-2468
see	-2469
})}	-2470
▁ep	-2471
eler	-2472
mark	-2473
vari	-2474
▁aim	-2475
▁art	-2476
▁enh	-2477
▁mid	-2478
▁sin	-2479
▁upd	-2480
▁1960	-2481
▁Cont	-2482
▁John	-2483
▁abst	-2484
▁gram	-2485
▁late	-2486
luding	-2487
ptions	-2488
source	-2489
ulated	-2490
▁2024,	-2491
▁Press	-2492
▁asser	-2493
▁becom	-2494
▁scene	-2495
▁surve	-2496
▁valid	-2497
▁whose	-2498
jective	-2499
mathcal	-2500
▁safety	-2501
▁widely	-2502
icrosoft	-2503
ructions	-2504
▁Network	-2505
▁acceler	-2506
▁average	-2507
▁digital	-2508
▁equival	-2509
▁explain	-2510
generated	-2511
▁improved	-2512
▁parallel	-2513
▁position	-2514
▁symbolic	-2515
▁Transform	-2516
▁statement	-2517
▁References	-2518
▁connection	-2519
▁capabilities	-2520
▁Reinforcement	-2521
▁convolutional	-2522
ML	-2523
yc	-2524
▁∈	-2525
▁∼	-2526
10.	-2527
ape	-2528
emb	-2529
gin	-2530
ley	-2531
▁te	-2532
(1)}	-2533
atch	-2534
ateg	-2535
gres	-2536
hood	-2537
ilit	-2538
inel	-2539
ison	-2540
rete	-2541
ters	-2542
wise	-2543
▁Uni	-2544
▁mom	-2545
▁off	-2546
▁say	-2547
▁unc	-2548
blems	-2549
fiers	-2550
inger	-2551
pects	-2552
rices	-2553
▁Paul	-2554
▁book	-2555
▁chat	-2556
▁done	-2557
▁pair	-2558
▁util	-2559
▁zero	-2560
▁Techn	-2561
▁above	-2562
▁along	-2563
▁areas	-2564
▁bench	-2565
▁circu	-2566
▁equal	-2567
▁explo	-2568
▁fixed	-2569
▁lingu	-2570
▁parad	-2571
▁psych	-2572
▁robot	-2573
▁table	-2574
agement	-2575
isation	-2576
▁argued	-2577
▁belief	-2578
▁biases	-2579
▁compar	-2580
▁filter	-2581
▁possib	-2582
▁record	-2583
▁showed	-2584
▁authors	-2585
▁grammar	-2586
▁initial	-2587
▁largest	-2588
▁signals	-2589
▁strateg	-2590
including	-2591
▁Language	-2592
▁existing	-2593
▁included	-2594
▁material	-2595
▁referred	-2596
▁relative	-2597
▁relevant	-2598
▁variable	-2599
▁vehicles	-2600
▁analyzing	-2601
▁hierarchy	-2602
▁notations	-2603
▁components	-2604
▁expression	-2605
▁situations	-2606
▁vocabulary	-2607
▁feedforward	-2608
▁increasingly	-2609
▁International	-2610
▁significantly	-2611
))	-2612
,}	-2613
15	-2614
18	-2615
2.	-2616
5.	-2617
nd	-2618
}(	-2619
▁∑	-2620
_{2	-2621
gre	-2622
seq	-2623
ule	-2624
umn	-2625
▁CA	-2626
▁vs	-2627
Mind	-2628
ands	-2629
cial	-2630
most	-2631
ympt	-2632
▁Fin	-2633
▁aud	-2634
▁der	-2635
▁few	-2636
angle	-2637
arrow	-2638
cious	-2639
ctive	-2640
meric	-2641
ounts	-2642
sible	-2643
tuned	-2644
▁(200	-2645
▁Inst	-2646
▁Such	-2647
▁good	-2648
▁guid	-2649
▁link	-2650
▁prom	-2651
▁said	-2652
▁slow	-2653
▁thin	-2654
ademic	-2655
mathrm	-2656
matrix	-2657
sively	-2658
▁2025,	-2659
▁count	-2660
▁event	-2661
▁final	-2662
▁right	-2663
▁senti	-2664
▁Americ	-2665
▁groups	-2666
▁levels	-2667
complete	-2668
▁History	-2669
▁billion	-2670
▁contrib	-2671
▁ethical	-2672
▁follows	-2673
▁instead	-2674
▁logical	-2675
▁operate	-2676
▁paradig	-2677
▁reading	-2678
▁scienti	-2679
▁symbols	-2680
▁univers	-2681
▁Although	-2682
▁DeepMind	-2683
▁challeng	-2684
▁complete	-2685
▁expected	-2686
▁feedback	-2687
▁inspired	-2688
▁negative	-2689
▁powerful	-2690
▁Microsoft	-2691
▁Similarly	-2692
▁construct	-2693
▁increased	-2694
▁questions	-2695
information	-2696
▁estimation	-2697
▁Recognition	-2698
▁appropriate	-2699
▁Applications	-2700
):	-2701
-9	-2702
14	-2703
OL	-2704
PS	-2705
cd	-2706
▁>	-2707
amb	-2708
det	-2709
ocr	-2710
rey	-2711
set	-2712
sin	-2713
tal	-2714
way	-2715
▁So	-2716
acks	-2717
ater	-2718
bitr	-2719
inds	-2720
only	-2721
ooks	-2722
oted	-2723
pert	-2724
▁ANN	-2725
▁Log	-2726
▁Not	-2727
▁Sci	-2728
▁Web	-2729
▁car	-2730
▁dra	-2731
▁ess	-2732
▁job	-2733
▁let	-2734
▁ont	-2735
▁row	-2736
aling	-2737
ember	-2738
iring	-2739
ising	-2740
lobal	-2741
▁1970	-2742
▁2000	-2743
▁BERT	-2744
▁capt	-2745
▁fore	-2746
▁lack	-2747
▁line	-2748
▁name	-2749
▁prof	-2750
▁prot	-2751
▁rare	-2752
▁seen	-2753
ecause	-2754
formed	-2755
itions	-2756
length	-2757
zation	-2758
▁Model	-2759
▁avoid	-2760
▁basis	-2761
▁below	-2762
▁kinds	-2763
▁media	-2764
▁recur	-2765
▁regul	-2766
▁taken	-2767
▁times	-2768
mercial	-2769
stitute	-2770
▁advers	-2771
▁arbitr	-2772
▁column	-2773
▁discus	-2774
▁growth	-2775
▁highly	-2776
▁likely	-2777
▁masked	-2778
▁needed	-2779
▁Univers	-2780
▁aspects	-2781
▁desired	-2782
▁discipl	-2783
▁quantum	-2784
parameter	-2785
plication	-2786
▁External	-2787
▁handwrit	-2788
▁incorpor	-2789
▁indexing	-2790
▁industry	-2791
▁measures	-2792
▁policies	-2793
▁variance	-2794
▁databases	-2795
▁resulting	-2796
▁retrieval	-2797
▁Processing	-2798
▁perceptron	-2799
▁sufficient	-2800
▁Information	-2801
▁efficiently	-2802
4.	-2803
BM	-2804
CA	-2805
\;	-2806
ai	-2807
zz	-2808
aim	-2809
fix	-2810
ior	-2811
irt	-2812
lar	-2813
lim	-2814
mic	-2815
ope	-2816
oph	-2817
sol	-2818
ury	-2819
zed	-2820
|{\	-2821
▁Is	-2822
▁No	-2823
▁Or	-2824
)={\	-2825
come	-2826
oice	-2827
omen	-2828
onst	-2829
ords	-2830
rons	-2831
sian	-2832
ubly	-2833
uman	-2834
used	-2835
▁...	-2836
▁All	-2837
▁Par	-2838
▁win	-2839
▁you	-2840
ector	-2841
ensor	-2842
first	-2843
label	-2844
light	-2845
poral	-2846
rames	-2847
▁2010	-2848
▁2020	-2849
▁With	-2850
▁adop	-2851
▁care	-2852
▁epis	-2853
▁exec	-2854
▁pass	-2855
▁scen	-2856
ancial	-2857
fusion	-2858
mathbb	-2859
▁Analy	-2860
▁Array	-2861
▁Hardy	-2862
▁Knuth	-2863
▁Moder	-2864
▁agree	-2865
▁built	-2866
▁chatb	-2867
▁claim	-2868
▁divid	-2869
▁edges	-2870
▁entit	-2871
▁goals	-2872
▁shown	-2873
alities	-2874
isition	-2875
mediate	-2876
ocrates	-2877
sequent	-2878
ulative	-2879
▁Theory	-2880
▁bounds	-2881
▁latent	-2882
▁little	-2883
▁normal	-2884
▁stated	-2885
▁synthe	-2886
▁General	-2887
▁Introdu	-2888
▁analyze	-2889
▁compres	-2890
▁parsing	-2891
▁samples	-2892
▁sensors	-2893
▁unknown	-2894
▁whereas	-2895
ultimodal	-2896
▁allowing	-2897
▁although	-2898
▁attempts	-2899
▁circular	-2900
▁discover	-2901
▁external	-2902
▁physical	-2903
▁separate	-2904
processing	-2905
▁Institute	-2906
▁diagnosis	-2907
ularization	-2908
▁University	-2909
▁dictionary	-2910
▁frequently	-2911
▁hypothesis	-2912
▁adversarial	-2913
▁independent	-2914
▁interaction	-2915
▁overfitting	-2916
▁potentially	-2917
60	-2918
MM	-2919
go	-2920
|\	-2921
day	-2922
ece	-2923
ina	-2924
pol	-2925
que	-2926
rel	-2927
vin	-2928
▁18	-2929
▁1:	-2930
▁DA	-2931
▁Su	-2932
▁pi	-2933
▁sk	-2934
:10.	-2935
alse	-2936
book	-2937
cdot	-2938
duct	-2939
iter	-2940
sess	-2941
side	-2942
}}{\	-2943
▁Aut	-2944
▁Big	-2945
▁But	-2946
▁CNN	-2947
▁Dav	-2948
▁Des	-2949
▁doi	-2950
▁ens	-2951
▁get	-2952
▁seq	-2953
▁try	-2954
acity	-2955
asked	-2956
ender	-2957
estab	-2958
icine	-2959
orage	-2960
uning	-2961
▁(198	-2962
▁Here	-2963
▁List	-2964
▁Most	-2965
▁Spec	-2966
▁bene	-2967
▁idea	-2968
▁once	-2969
▁shif	-2970
atural	-2971
herent	-2972
making	-2973
resent	-2974
▁Train	-2975
▁begin	-2976
▁broad	-2977
▁domin	-2978
▁expon	-2979
▁neuro	-2980
▁quick	-2981
▁risks	-2982
▁scale	-2983
▁usage	-2984
▁write	-2985
oregres	-2986
racking	-2987
▁Modern	-2988
▁Search	-2989
▁accept	-2990
▁altern	-2991
▁binary	-2992
▁choice	-2993
▁easier	-2994
▁easily	-2995
▁learns	-2996
▁respec	-2997
▁review	-2998
▁strong	-2999
▁taking	-3000
determin	-3001
oltzmann	-3002
▁Because	-3003
▁amounts	-3004
▁descent	-3005
▁factors	-3006
▁focuses	-3007
▁genetic	-3008
▁physics	-3009
▁present	-3010
▁reconst	-3011
▁records	-3012
▁respect	-3013
▁returns	-3014
▁storage	-3015
▁European	-3016
▁accurate	-3017
▁adaptive	-3018
▁decoding	-3019
▁document	-3020
▁extended	-3021
▁matrices	-3022
▁Represent	-3023
▁concerned	-3024
▁describes	-3025
▁empirical	-3026
▁necessary	-3027
▁producing	-3028
▁recognize	-3029
▁recommend	-3030
▁selection	-3031
▁sequences	-3032
▁Complexity	-3033
▁Structures	-3034
▁Technology	-3035
▁characters	-3036
▁equivalent	-3037
▁evaluation	-3038
▁explicitly	-3039
▁generating	-3040
▁identified	-3041
▁predicting	-3042
▁restricted	-3043
▁acquisition	-3044
▁definitions	-3045
▁effectively	-3046
▁intelligent	-3047
▁limitations	-3048
▁instructions	-3049
▁representing	-3050
▁corresponding	-3051
70	-3052
EE	-3053
FN	-3054
LL	-3055
fe	-3056
ze	-3057
}+	-3058
}{	-3059
▁q	-3060
){\	-3061
aps	-3062
ave	-3063
equ	-3064
ged	-3065
ird	-3066
isp	-3067
lde	-3068
met	-3069
pty	-3070
rad	-3071
rap	-3072
sky	-3073
use	-3074
uzz	-3075
}{\	-3076
▁15	-3077
▁Pr	-3078
▁^{	-3079
▁el	-3080
▁lo	-3081
PACE	-3082
ails	-3083
assi	-3084
bert	-3085
itig	-3086
lean	-3087
mall	-3088
▁Rob	-3089
▁aid	-3090
▁deg	-3091
▁exh	-3092
▁ill	-3093
▁pic	-3094
▁yet	-3095
conom	-3096
espre	-3097
ested	-3098
marks	-3099
peech	-3100
ready	-3101
sense	-3102
tilde	-3103
tives	-3104
ustom	-3105
▁Alex	-3106
▁GPUs	-3107
▁coun	-3108
▁face	-3109
▁harm	-3110
▁hash	-3111
▁libr	-3112
▁mind	-3113
▁read	-3114
▁role	-3115
▁soci	-3116
▁tend	-3117
▁wide	-3118
ishing	-3119
uation	-3120
uclear	-3121
▁Appro	-3122
▁audio	-3123
▁break	-3124
▁compe	-3125
▁empty	-3126
▁estab	-3127
▁offer	-3128
▁total	-3129
ditions	-3130
espread	-3131
ymbolic	-3132
▁During	-3133
▁camera	-3134
▁chosen	-3135
▁custom	-3136
▁singly	-3137
▁source	-3138
▁spaces	-3139
\!\!\!\!	-3140
izations	-3141
ymptotic	-3142
▁Mathema	-3143
▁against	-3144
▁becomes	-3145
▁century	-3146
▁closely	-3147
▁collect	-3148
▁engines	-3149
▁focused	-3150
▁history	-3151
▁labeled	-3152
▁purpose	-3153
▁scenari	-3154
▁simpler	-3155
▁smaller	-3156
▁subject	-3157
▁typical	-3158
▁National	-3159
▁Training	-3160
▁abstract	-3161
▁actually	-3162
▁creating	-3163
▁produces	-3164
▁projects	-3165
▁sentinel	-3166
▁Boltzmann	-3167
▁conscious	-3168
▁effective	-3169
▁financial	-3170
▁performed	-3171
▁responses	-3172
▁sentences	-3173
▁clustering	-3174
▁commercial	-3175
▁integrated	-3176
▁predictive	-3177
▁statements	-3178
▁widespread	-3179
▁constraints	-3180
▁integration	-3181
▁demonstrated	-3182
▁segmentation	-3183
▁specifically	-3184
▁technologies	-3185
▁probabilities	-3186
&\	-3187
(2	-3188
/2	-3189
16	-3190
30	-3191
8.	-3192
AS	-3193
ee	-3194
hu	-3195
qr	-3196
").	-3197
))\	-3198
_{0	-3199
cri	-3200
did	-3201
oud	-3202
qrt	-3203
sts	-3204
ude	-3205
▁Sc	-3206
▁cr	-3207
▁sw	-3208
alog	-3209
ensi	-3210
here	-3211
ighb	-3212
ions	-3213
late	-3214
mail	-3215
next	-3216
oper	-3217
resh	-3218
sqrt	-3219
ully	-3220
}}_{	-3221
▁Acc	-3222
▁Act	-3223
▁Man	-3224
▁Mon	-3225
▁Rel	-3226
▁Ret	-3227
▁Spr	-3228
▁cur	-3229
▁fam	-3230
▁hal	-3231
▁mal	-3232
▁mar	-3233
▁squ	-3234
▁tri	-3235
Theta	-3236
andau	-3237
arith	-3238
defin	-3239
iving	-3240
lying	-3241
organ	-3242
otics	-3243
ourse	-3244
▁Arch	-3245
▁Carl	-3246
▁Lisp	-3247
▁RoPE	-3248
▁Then	-3249
▁Vari	-3250
▁dedu	-3251
▁laws	-3252
▁past	-3253
▁reli	-3254
▁repe	-3255
▁vers	-3256
▁virt	-3257
^{2})}	-3258
aching	-3259
encies	-3260
everal	-3261
▁2016,	-3262
▁Seman	-3263
▁chain	-3264
▁depth	-3265
▁false	-3266
▁games	-3267
▁gives	-3268
▁heads	-3269
▁hyper	-3270
▁items	-3271
▁needs	-3272
▁proof	-3273
defined	-3274
opfield	-3275
pensive	-3276
ructure	-3277
▁Associ	-3278
▁Retrie	-3279
▁Statis	-3280
▁Unlike	-3281
▁assist	-3282
▁candid	-3283
▁doubly	-3284
▁errors	-3285
▁expect	-3286
▁explan	-3287
▁formul	-3288
▁global	-3289
▁intern	-3290
▁remain	-3291
▁string	-3292
▁summar	-3293
▁viewed	-3294
specific	-3295
▁Natural	-3296
▁Several	-3297
▁Systems	-3298
▁achieve	-3299
▁allowed	-3300
▁applies	-3301
▁competi	-3302
▁compute	-3303
▁defines	-3304
▁devices	-3305
▁emotion	-3306
▁limited	-3307
▁moments	-3308
▁partial	-3309
▁philoso	-3310
▁pointer	-3311
▁prevent	-3312
▁project	-3313
▁quickly	-3314
▁running	-3315
▁softmax	-3316
▁studied	-3317
▁studies	-3318
▁towards	-3319
▁Archived	-3320
▁Internet	-3321
▁Networks	-3322
▁Springer	-3323
▁combined	-3324
▁discrete	-3325
▁distingu	-3326
▁fairness	-3327
▁followed	-3328
▁graphics	-3329
▁inherent	-3330
▁interact	-3331
▁matching	-3332
▁released	-3333
▁Diffusion	-3334
▁filtering	-3335
▁heuristic	-3336
▁iteration	-3337
▁reference	-3338
▁uncertain	-3339
▁conditions	-3340
▁eventually	-3341
▁government	-3342
▁management	-3343
▁psychology	-3344
▁transition	-3345
▁approximate	-3346
▁classifying	-3347
▁combination	-3348
▁consequence	-3349
headAttention	-3350
▁Introduction	-3351
▁differential	-3352
▁interactions	-3353
▁minimization	-3354
▁observations	-3355
▁respectively	-3356
&=	-3357
',	-3358
,\	-3359
50	-3360
CM	-3361
DD	-3362
IS	-3363
lo	-3364
IME	-3365
ane	-3366
ats	-3367
bin	-3368
dle	-3369
iod	-3370
ixt	-3371
lap	-3372
lon	-3373
pal	-3374
ped	-3375
pus	-3376
une	-3377
ush	-3378
▁12	-3379
▁Bi	-3380
▁Em	-3381
▁Ju	-3382
▁Mc	-3383
▁Of	-3384
▁Op	-3385
▁Py	-3386
▁Qu	-3387
bigl	-3388
bigr	-3389
data	-3390
greg	-3391
ient	-3392
izer	-3393
norm	-3394
oenc	-3395
otyp	-3396
over	-3397
tein	-3398
what	-3399
▁Enc	-3400
▁GPU	-3401
▁Lar	-3402
▁MIT	-3403
▁Rus	-3404
▁dem	-3405
▁nor	-3406
▁ord	-3407
▁suf	-3408
indow	-3409
inese	-3410
inton	-3411
iting	-3412
oders	-3413
omaly	-3414
ortal	-3415
rable	-3416
urity	-3417
▁2022	-3418
▁2024	-3419
▁Also	-3420
▁CNNs	-3421
▁DNNs	-3422
▁Face	-3423
▁Form	-3424
▁Jose	-3425
▁Text	-3426
▁cred	-3427
▁dele	-3428
▁fash	-3429
▁four	-3430
▁free	-3431
▁look	-3432
called	-3433
resses	-3434
valued	-3435
weight	-3436
▁Black	-3437
▁Carlo	-3438
▁Frame	-3439
▁Geoff	-3440
▁Stand	-3441
▁Using	-3442
▁atten	-3443
▁batch	-3444
▁cause	-3445
▁fraud	-3446
▁infin	-3447
▁mitig	-3448
▁parts	-3449
▁piece	-3450
▁rates	-3451
▁speak	-3452
▁topic	-3453
▁trade	-3454
elihood	-3455
unction	-3456
▁Expert	-3457
▁Hinton	-3458
▁across	-3459
▁active	-3460
▁actual	-3461
▁choose	-3462
▁corpor	-3463
▁corpus	-3464
▁distin	-3465
▁enough	-3466
▁motion	-3467
▁nature	-3468
▁outper	-3469
▁period	-3470
▁profes	-3471
▁remove	-3472
▁tables	-3473
▁videos	-3474
▁window	-3475
▁Chinese	-3476
▁Feature	-3477
▁already	-3478
▁article	-3479
▁centers	-3480
▁earlier	-3481
▁effects	-3482
▁fashion	-3483
▁nuclear	-3484
▁protein	-3485
▁rewards	-3486
▁sorting	-3487
▁Hopfield	-3488
▁Problems	-3489
▁Semantic	-3490
▁academic	-3491
▁advanced	-3492
▁capacity	-3493
▁category	-3494
▁guidance	-3495
▁integers	-3496
▁medicine	-3497
▁minimize	-3498
▁paradigm	-3499
▁response	-3500
▁temporal	-3501
▁detecting	-3502
▁equations	-3503
▁evolution	-3504
▁expensive	-3505
▁incorrect	-3506
▁operating	-3507
▁positions	-3508
▁principle	-3509
▁similarly	-3510
▁advantages	-3511
▁autoregres	-3512
▁categories	-3513
▁deployment	-3514
▁difficulty	-3515
▁frameworks	-3516
▁heuristics	-3517
▁mechanisms	-3518
▁multimodal	-3519
▁perception	-3520
▁previously	-3521
▁sequential	-3522
▁subsequent	-3523
▁systematic	-3524
▁algorithmic	-3525
▁convergence	-3526
▁exploration	-3527
▁observation	-3528
deterministic	-3529
▁Transformers	-3530
▁improvements	-3531
▁implementations	-3532
-\	-3533
.)	-3534
20	-3535
3,	-3536
40	-3537
=\	-3538
PP	-3539
da	-3540
no	-3541
▁—	-3542
"),	-3543
).}	-3544
-19	-3545
ald	-3546
bar	-3547
des	-3548
maz	-3549
ney	-3550
nov	-3551
oms	-3552
orn	-3553
pur	-3554
rug	-3555
var	-3556
ymp	-3557
▁)}	-3558
▁0.	-3559
▁BC	-3560
▁IT	-3561
ante	-3562
copy	-3563
ford	-3564
igma	-3565
ined	-3566
mble	-3567
msel	-3568
oded	-3569
ouse	-3570
pare	-3571
pite	-3572
rase	-3573
rele	-3574
tigu	-3575
ules	-3576
▁And	-3577
▁Gro	-3578
▁Lin	-3579
▁McC	-3580
▁Med	-3581
▁Pre	-3582
▁Pri	-3583
▁Sub	-3584
▁Two	-3585
▁You	-3586
▁_{\	-3587
▁ann	-3588
▁bad	-3589
▁div	-3590
▁jud	-3591
▁men	-3592
▁van	-3593
▁wat	-3594
acing	-3595
asses	-3596
asymp	-3597
babil	-3598
comes	-3599
eries	-3600
ernel	-3601
going	-3602
isely	-3603
istor	-3604
ithme	-3605
mazon	-3606
onald	-3607
ously	-3608
versi	-3609
▁2014	-3610
▁Back	-3611
▁Mich	-3612
▁Sing	-3613
▁York	-3614
▁chec	-3615
▁dise	-3616
▁half	-3617
▁kind	-3618
▁news	-3619
▁plat	-3620
▁rely	-3621
▁side	-3622
▁upon	-3623
abling	-3624
ounted	-3625
pected	-3626
stream	-3627
tivity	-3628
tuning	-3629
varphi	-3630
▁2015,	-3631
▁2020,	-3632
▁David	-3633
▁First	-3634
▁Logic	-3635
▁Monte	-3636
▁build	-3637
▁costs	-3638
▁fully	-3639
▁liter	-3640
▁shall	-3641
▁thous	-3642
▁today	-3643
▁whole	-3644
▁worst	-3645
jection	-3646
mselves	-3647
purpose	-3648
sitions	-3649
▁Amazon	-3650
▁Joseph	-3651
▁Linear	-3652
▁Prolog	-3653
▁Schmid	-3654
▁aggreg	-3655
▁assume	-3656
▁author	-3657
▁belong	-3658
▁entity	-3659
▁frames	-3660
▁graphs	-3661
▁neighb	-3662
▁notion	-3663
▁online	-3664
▁rights	-3665
▁robots	-3666
▁termin	-3667
▁thesis	-3668
▁things	-3669
▁Journal	-3670
▁Program	-3671
▁Project	-3672
▁autoenc	-3673
▁capital	-3674
▁company	-3675
▁divided	-3676
▁enhance	-3677
▁forward	-3678
▁imaging	-3679
▁mapping	-3680
▁reduced	-3681
▁removed	-3682
▁service	-3683
▁started	-3684
▁testing	-3685
▁writing	-3686
embedding	-3687
▁Geoffrey	-3688
▁analyzed	-3689
▁circuits	-3690
▁communic	-3691
▁creation	-3692
▁critical	-3693
▁implicit	-3694
▁maintain	-3695
▁outcomes	-3696
▁personal	-3697
▁property	-3698
▁reducing	-3699
▁simplest	-3700
▁variants	-3701
artificial	-3702
babilistic	-3703
▁addresses	-3704
▁advantage	-3705
▁essential	-3706
▁increases	-3707
▁increment	-3708
▁modelling	-3709
▁operation	-3710
▁otherwise	-3711
▁presented	-3712
▁procedure	-3713
▁recursive	-3714
▁scenarios	-3715
▁simulated	-3716
▁Supervised	-3717
▁challenges	-3718
▁confidence	-3719
▁convention	-3720
▁dimensions	-3721
▁discounted	-3722
▁procedures	-3723
▁production	-3724
▁scientific	-3725
▁themselves	-3726
▁classifiers	-3727
▁conditional	-3728
▁identifying	-3729
▁linguistics	-3730
▁Unsupervised	-3731
▁developments	-3732
▁requirements	-3733
▁generalization	-3734
+\	-3735
3%	-3736
80	-3737
DM	-3738
MA	-3739
ke	-3740
)}}	-3741
...	-3742
100	-3743
ael	-3744
cto	-3745
eep	-3746
ger	-3747
ler	-3748
ras	-3749
sor	-3750
tig	-3751
▁&\	-3752
▁:=	-3753
▁Bo	-3754
▁Fl	-3755
▁Sa	-3756
▁ir	-3757
abet	-3758
aged	-3759
ampl	-3760
apan	-3761
asks	-3762
ayer	-3763
cast	-3764
ches	-3765
ppen	-3766
raft	-3767
rial	-3768
rote	-3769
seen	-3770
ucin	-3771
ustr	-3772
uzzy	-3773
yond	-3774
▁193	-3775
▁Bri	-3776
▁Det	-3777
▁Dis	-3778
▁IBM	-3779
▁May	-3780
▁Reg	-3781
▁aff	-3782
▁bit	-3783
▁fav	-3784
▁max	-3785
▁mim	-3786
▁rig	-3787
▁sus	-3788
▁syn	-3789
▁vol	-3790
_{1},	-3791
atics	-3792
erior	-3793
fakes	-3794
huber	-3795
query	-3796
riter	-3797
sigma	-3798
tices	-3799
}}|{\	-3800
▁1950	-3801
▁Comp	-3802
▁DALL	-3803
▁Hebb	-3804
▁Meta	-3805
▁Soft	-3806
▁call	-3807
▁core	-3808
▁drug	-3809
▁easy	-3810
▁emph	-3811
▁evol	-3812
▁feel	-3813
▁guar	-3814
▁maps	-3815
▁nets	-3816
▁outl	-3817
▁page	-3818
▁phot	-3819
▁rise	-3820
anging	-3821
asible	-3822
elling	-3823
ethods	-3824
layers	-3825
mented	-3826
phabet	-3827
stanti	-3828
▁978-1	-3829
▁China	-3830
▁Early	-3831
▁Japan	-3832
▁alloc	-3833
▁close	-3834
▁cloud	-3835
▁decre	-3836
▁exhib	-3837
▁ideas	-3838
▁innov	-3839
▁legal	-3840
▁match	-3841
▁monit	-3842
▁moved	-3843
▁names	-3844
▁seeks	-3845
▁store	-3846
▁tries	-3847
▁voice	-3848
▁wrote	-3849
allucin	-3850
ampling	-3851
ilitary	-3852
labeled	-3853
ulating	-3854
▁Classi	-3855
▁Little	-3856
▁Mining	-3857
▁Stable	-3858
▁analog	-3859
▁appear	-3860
▁argues	-3861
▁assess	-3862
▁attrib	-3863
▁beyond	-3864
▁biased	-3865
▁device	-3866
▁econom	-3867
▁effect	-3868
▁events	-3869
▁exists	-3870
▁happen	-3871
▁latter	-3872
▁length	-3873
▁mainly	-3874
▁moving	-3875
▁propag	-3876
▁proved	-3877
▁superv	-3878
▁termed	-3879
▁topics	-3880
plicated	-3881
▁Process	-3882
▁adopted	-3883
▁advance	-3884
▁answers	-3885
▁arithme	-3886
▁assigns	-3887
▁cameras	-3888
▁capture	-3889
▁changes	-3890
▁contigu	-3891
▁enables	-3892
▁exactly	-3893
▁filters	-3894
▁impacts	-3895
▁indexed	-3896
▁intract	-3897
▁journal	-3898
▁library	-3899
▁precise	-3900
▁shallow	-3901
▁strings	-3902
▁virtual	-3903
formatics	-3904
orphology	-3905
▁American	-3906
▁December	-3907
▁analytic	-3908
▁believed	-3909
▁enabling	-3910
▁infinite	-3911
▁intended	-3912
▁maximize	-3913
▁ontology	-3914
▁overcome	-3915
▁performs	-3916
▁prompted	-3917
▁relation	-3918
▁replaced	-3919
▁transfer	-3920
▁weighted	-3921
▁According	-3922
▁Algorithm	-3923
▁Retrieved	-3924
▁abilities	-3925
▁considers	-3926
▁direction	-3927
▁influence	-3928
▁precisely	-3929
▁principal	-3930
▁processed	-3931
▁searching	-3932
▁synthetic	-3933
▁universal	-3934
▁benchmarks	-3935
▁classified	-3936
▁differenti	-3937
▁embeddings	-3938
▁resolution	-3939
▁underlying	-3940
▁Schmidhuber	-3941
▁Statistical	-3942
▁assumptions	-3943
▁constructed	-3944
▁copyrighted	-3945
▁explanation	-3946
▁individuals	-3947
▁perceptrons	-3948
▁Representation	-3949
▁dimensionality	-3950
▁discriminative	-3951
▁interpretation	-3952
▁multiplication	-3953
▁regularization	-3954
++	-3955
.;	-3956
0&	-3957
13	-3958
62	-3959
7.	-3960
9.	-3961
90	-3962
HF	-3963
LN	-3964
LU	-3965
NE	-3966
ba	-3967
uk	-3968
)^{	-3969
-2.	-3970
1}}	-3971
ISP	-3972
ams	-3973
ank	-3974
cat	-3975
che	-3976
emi	-3977
ief	-3978
lec	-3979
min	-3980
ody	-3981
ori	-3982
raw	-3983
ths	-3984
▁	-3985
e	-3986
t	-3987
a	-3988
i	-3989
n	-3990
o	-3991
s	-3992
r	-3993
l	-3994
c	-3995
d	-3996
h	-3997
m	-3998
u	-3999
p	-4000
g	-4001
f	-4002
y	-4003
b	-4004
,	-4005
w	-4006
.	-4007
v	-4008
x	-4009
k	-4010
)	-4011
(	-4012
{	-4013
}	-4014
\	-4015
-	-4016
T	-4017
A	-4018
I	-4019
0	-4020
1	-4021
2	-4022
"	-4023
S	-4024
M	-4025
P	-4026
N	-4027
q	-4028
L	-4029
C	-4030
z	-4031
O	-4032
D	-4033
R	-4034
9	-4035
E	-4036
F	-4037
=	-4038
B	-4039
G	-4040
:	-4041
3	-4042
H	-4043
j	-4044
_	-4045
'	-4046
4	-4047
8	-4048
W	-4049
5	-4050
U	-4051
7	-4052
6	-4053
^	-4054
K	-4055
+	-4056
V	-4057
;	-4058
–	-4059
J	-4060
/	-4061
|	-4062
X	-4063
[	-4064
]	-4065
Q	-4066
Y	-4067
&	-4068
%	-4069
−	-4070
⁡	-4071
—	-4072
θ	-4073
→	-4074
!	-4075
∞	-4076
Ω	-4077
Z	-4078
~	-4079
>	-4080
π	-4081
*	-4082
←	-4083
φ	-4084
?	-4085
≤	-4086
≥	-4087
∈	-4088
∼	-4089
∑	-4090
$	-4091
